#ifndef MODELO_H
#define MODELO_H

const unsigned char modelo_tflite[] = {
   0x1c, 0x00, 0x00, 0x00, 0x54, 0x46, 0x4c, 0x33, 0x14, 0x00, 0x20, 0x00,
   0x1c, 0x00, 0x18, 0x00, 0x14, 0x00, 0x10, 0x00, 0x0c, 0x00, 0x00, 0x00,
   0x08, 0x00, 0x04, 0x00, 0x14, 0x00, 0x00, 0x00, 0x1c, 0x00, 0x00, 0x00,
   0x88, 0x00, 0x00, 0x00, 0xe0, 0x00, 0x00, 0x00, 0xe4, 0x03, 0x00, 0x00,
   0xf4, 0x03, 0x00, 0x00, 0x50, 0x08, 0x00, 0x00, 0x03, 0x00, 0x00, 0x00,
   0x01, 0x00, 0x00, 0x00, 0x04, 0x00, 0x00, 0x00, 0xd2, 0xfb, 0xff, 0xff,
   0x0c, 0x00, 0x00, 0x00, 0x1c, 0x00, 0x00, 0x00, 0x3c, 0x00, 0x00, 0x00,
   0x0f, 0x00, 0x00, 0x00, 0x73, 0x65, 0x72, 0x76, 0x69, 0x6e, 0x67, 0x5f,
   0x64, 0x65, 0x66, 0x61, 0x75, 0x6c, 0x74, 0x00, 0x01, 0x00, 0x00, 0x00,
   0x04, 0x00, 0x00, 0x00, 0x94, 0xff, 0xff, 0xff, 0x07, 0x00, 0x00, 0x00,
   0x04, 0x00, 0x00, 0x00, 0x08, 0x00, 0x00, 0x00, 0x6f, 0x75, 0x74, 0x70,
   0x75, 0x74, 0x5f, 0x30, 0x00, 0x00, 0x00, 0x00, 0x01, 0x00, 0x00, 0x00,
   0x04, 0x00, 0x00, 0x00, 0xa2, 0xfc, 0xff, 0xff, 0x04, 0x00, 0x00, 0x00,
   0x0b, 0x00, 0x00, 0x00, 0x69, 0x6e, 0x70, 0x75, 0x74, 0x5f, 0x6c, 0x61,
   0x79, 0x65, 0x72, 0x00, 0x02, 0x00, 0x00, 0x00, 0x34, 0x00, 0x00, 0x00,
   0x04, 0x00, 0x00, 0x00, 0xdc, 0xff, 0xff, 0xff, 0x0a, 0x00, 0x00, 0x00,
   0x04, 0x00, 0x00, 0x00, 0x13, 0x00, 0x00, 0x00, 0x43, 0x4f, 0x4e, 0x56,
   0x45, 0x52, 0x53, 0x49, 0x4f, 0x4e, 0x5f, 0x4d, 0x45, 0x54, 0x41, 0x44,
   0x41, 0x54, 0x41, 0x00, 0x08, 0x00, 0x0c, 0x00, 0x08, 0x00, 0x04, 0x00,
   0x08, 0x00, 0x00, 0x00, 0x09, 0x00, 0x00, 0x00, 0x04, 0x00, 0x00, 0x00,
   0x13, 0x00, 0x00, 0x00, 0x6d, 0x69, 0x6e, 0x5f, 0x72, 0x75, 0x6e, 0x74,
   0x69, 0x6d, 0x65, 0x5f, 0x76, 0x65, 0x72, 0x73, 0x69, 0x6f, 0x6e, 0x00,
   0x0b, 0x00, 0x00, 0x00, 0x00, 0x03, 0x00, 0x00, 0xf8, 0x02, 0x00, 0x00,
   0xe4, 0x02, 0x00, 0x00, 0x8c, 0x02, 0x00, 0x00, 0xfc, 0x00, 0x00, 0x00,
   0xac, 0x00, 0x00, 0x00, 0xa4, 0x00, 0x00, 0x00, 0x9c, 0x00, 0x00, 0x00,
   0x94, 0x00, 0x00, 0x00, 0x74, 0x00, 0x00, 0x00, 0x04, 0x00, 0x00, 0x00,
   0x46, 0xfd, 0xff, 0xff, 0x04, 0x00, 0x00, 0x00, 0x60, 0x00, 0x00, 0x00,
   0x10, 0x00, 0x00, 0x00, 0x00, 0x00, 0x00, 0x00, 0x08, 0x00, 0x0e, 0x00,
   0x08, 0x00, 0x04, 0x00, 0x08, 0x00, 0x00, 0x00, 0x10, 0x00, 0x00, 0x00,
   0x24, 0x00, 0x00, 0x00, 0x00, 0x00, 0x06, 0x00, 0x08, 0x00, 0x04, 0x00,
   0x06, 0x00, 0x00, 0x00, 0x04, 0x00, 0x00, 0x00, 0x00, 0x00, 0x00, 0x00,
   0x0c, 0x00, 0x18, 0x00, 0x14, 0x00, 0x10, 0x00, 0x0c, 0x00, 0x04, 0x00,
   0x0c, 0x00, 0x00, 0x00, 0xb7, 0x2f, 0xac, 0x81, 0x28, 0x48, 0xfc, 0x7a,
   0x02, 0x00, 0x00, 0x00, 0x02, 0x00, 0x00, 0x00, 0x04, 0x00, 0x00, 0x00,
   0x06, 0x00, 0x00, 0x00, 0x32, 0x2e, 0x32, 0x31, 0x2e, 0x30, 0x00, 0x00,
   0xb2, 0xfd, 0xff, 0xff, 0x04, 0x00, 0x00, 0x00, 0x10, 0x00, 0x00, 0x00,
   0x31, 0x2e, 0x31, 0x34, 0x2e, 0x30, 0x00, 0x00, 0x00, 0x00, 0x00, 0x00,
   0x00, 0x00, 0x00, 0x00, 0x74, 0xf9, 0xff, 0xff, 0x78, 0xf9, 0xff, 0xff,
   0x7c, 0xf9, 0xff, 0xff, 0xda, 0xfd, 0xff, 0xff, 0x04, 0x00, 0x00, 0x00,
   0x40, 0x00, 0x00, 0x00, 0x37, 0xc1, 0x22, 0x3f, 0xa8, 0xbd, 0x1e, 0x3f,
   0x73, 0x8e, 0xf9, 0x3e, 0xda, 0x30, 0x20, 0x3f, 0xf4, 0x7e, 0x76, 0xbe,
   0xee, 0xc5, 0x37, 0xbe, 0xa4, 0x80, 0x1b, 0x3f, 0xaa, 0xba, 0x38, 0x3d,
   0x1c, 0x36, 0x8e, 0x3e, 0x1e, 0xa1, 0x0f, 0x3f, 0xd5, 0x77, 0xe0, 0x3e,
   0x84, 0x70, 0x24, 0x3f, 0x64, 0x52, 0xe3, 0xbe, 0xcc, 0xa7, 0x83, 0xbe,
   0x57, 0x9f, 0x28, 0x3f, 0x2d, 0x5c, 0x14, 0xbe, 0x26, 0xfe, 0xff, 0xff,
   0x04, 0x00, 0x00, 0x00, 0x80, 0x01, 0x00, 0x00, 0x3f, 0x6a, 0x49, 0xbe,
   0x52, 0x97, 0x80, 0x3e, 0x6e, 0x76, 0x0a, 0xbf, 0x11, 0x72, 0x8e, 0x3c,
   0x73, 0x1b, 0x3c, 0x3c, 0x2d, 0x01, 0x3c, 0x3d, 0xab, 0x92, 0xc9, 0xbe,
   0x26, 0xd5, 0x9f, 0xbe, 0x65, 0x6d, 0xf2, 0x3e, 0x6e, 0xfc, 0x19, 0x3e,
   0xe3, 0xd1, 0x5a, 0x3e, 0x39, 0x49, 0x1a, 0xbf, 0x40, 0x45, 0x1b, 0x3f,
   0xe7, 0x99, 0x4a, 0x3e, 0x7a, 0x53, 0xf8, 0xbe, 0x8f, 0x4d, 0x1f, 0xbe,
   0x15, 0xd7, 0x22, 0xbe, 0x97, 0x94, 0xa8, 0x3e, 0x1d, 0xde, 0xcb, 0x3e,
   0xfd, 0xb1, 0xfd, 0xbd, 0x46, 0x2f, 0x26, 0xbf, 0xaf, 0x29, 0xc0, 0x3d,
   0xd4, 0xe8, 0x98, 0x3e, 0x1b, 0x36, 0xe6, 0x3e, 0x1f, 0x22, 0x2a, 0xbd,
   0xd7, 0x23, 0x43, 0x3e, 0xb4, 0x0c, 0xcb, 0xbc, 0x95, 0x8c, 0xc6, 0xbe,
   0xae, 0xf0, 0x3e, 0x3f, 0x0b, 0x61, 0xe5, 0xbd, 0xcb, 0x00, 0xc8, 0xbe,
   0x9a, 0x20, 0xa7, 0x3d, 0xc8, 0x38, 0xdc, 0xbe, 0x27, 0xc7, 0x70, 0xbe,
   0x2f, 0xfc, 0x53, 0xbf, 0x4a, 0xee, 0xa3, 0x3c, 0xc1, 0xe4, 0xc0, 0xbd,
   0xf1, 0x39, 0x89, 0xbe, 0x97, 0x8d, 0x8b, 0xbe, 0xcb, 0x4a, 0xb4, 0x3b,
   0x54, 0x7e, 0x57, 0x3d, 0x13, 0x0d, 0x11, 0x3d, 0xe7, 0x4b, 0x4d, 0xbe,
   0x06, 0x60, 0x1b, 0xbf, 0xf0, 0xad, 0x8b, 0x3e, 0x85, 0x71, 0x84, 0x3f,
   0xcd, 0xbb, 0x33, 0xbf, 0x00, 0xb3, 0xcf, 0x3e, 0x9b, 0x56, 0x31, 0x3e,
   0x96, 0x9a, 0xe4, 0x3e, 0xf7, 0x95, 0x27, 0xbf, 0x10, 0x33, 0x04, 0xbe,
   0xe4, 0x5f, 0x0f, 0x3e, 0xc1, 0x59, 0x26, 0x3f, 0xb1, 0xe4, 0x31, 0xbe,
   0x95, 0xe9, 0xda, 0xbd, 0x6a, 0x9b, 0xbe, 0x3e, 0x0d, 0xcd, 0xc5, 0xbd,
   0x85, 0xc2, 0x4f, 0x3e, 0x70, 0x21, 0x07, 0xbf, 0xad, 0x58, 0x12, 0xbf,
   0x61, 0x20, 0x3b, 0xbe, 0x8c, 0x70, 0xfe, 0x3e, 0x05, 0x97, 0x84, 0xbe,
   0xa2, 0xe3, 0x91, 0xbe, 0xf6, 0x89, 0x62, 0x3d, 0x82, 0x24, 0xc1, 0x3e,
   0xe4, 0xaf, 0xe0, 0x3d, 0x94, 0x29, 0xf6, 0x3e, 0xd8, 0x99, 0xc6, 0xbe,
   0x52, 0x5a, 0x6e, 0x3d, 0x89, 0x6e, 0xc4, 0x3d, 0xdd, 0xc6, 0x8a, 0xbe,
   0xe0, 0x6e, 0xd4, 0x3d, 0x2f, 0x54, 0x19, 0xbd, 0x52, 0x22, 0xb1, 0xbf,
   0xa5, 0x72, 0x7a, 0x3c, 0x72, 0xe9, 0xbd, 0xbe, 0xd9, 0x32, 0x4b, 0x3e,
   0x04, 0xc6, 0xfd, 0xbe, 0x3a, 0xa1, 0x8d, 0x3e, 0xfd, 0xb1, 0xbb, 0x3e,
   0x0a, 0x02, 0xae, 0x3f, 0xc4, 0x19, 0x0a, 0xbe, 0x6a, 0x79, 0x8c, 0xbe,
   0x8c, 0xe0, 0xb6, 0xbe, 0x4b, 0xed, 0x82, 0x3e, 0x0e, 0x18, 0x90, 0xbd,
   0x09, 0xd8, 0xa3, 0x3e, 0x7c, 0x7c, 0x48, 0xbf, 0x61, 0x74, 0xb4, 0x3c,
   0x0c, 0xbf, 0xd0, 0x3e, 0xf5, 0x7c, 0x19, 0xbe, 0xaa, 0x1d, 0x1b, 0x3e,
   0x13, 0xf9, 0x63, 0x3f, 0x1a, 0x7b, 0xa2, 0xbe, 0xb2, 0xff, 0xff, 0xff,
   0x04, 0x00, 0x00, 0x00, 0x40, 0x00, 0x00, 0x00, 0xe4, 0x43, 0x4f, 0xbf,
   0xb3, 0xb3, 0x02, 0xbf, 0xa9, 0x02, 0xe1, 0xbe, 0xfd, 0x79, 0x06, 0xbe,
   0x06, 0xe7, 0x66, 0x3f, 0x56, 0x30, 0x0c, 0x3f, 0x9b, 0x3f, 0x50, 0xbe,
   0x5f, 0x53, 0x62, 0x3f, 0x1c, 0x5e, 0xec, 0xbe, 0xae, 0x0d, 0x09, 0xbf,
   0xff, 0x5d, 0x75, 0xbe, 0x41, 0xa0, 0x06, 0xbf, 0xd5, 0xb3, 0xa0, 0x3f,
   0xe8, 0x79, 0x43, 0x3f, 0xd9, 0xb6, 0x31, 0xbf, 0x55, 0x2d, 0x82, 0x3f,
   0x00, 0x00, 0x06, 0x00, 0x08, 0x00, 0x04, 0x00, 0x06, 0x00, 0x00, 0x00,
   0x04, 0x00, 0x00, 0x00, 0x04, 0x00, 0x00, 0x00, 0x03, 0xd1, 0xeb, 0xbe,
   0xbc, 0xfb, 0xff, 0xff, 0xc0, 0xfb, 0xff, 0xff, 0x0f, 0x00, 0x00, 0x00,
   0x4d, 0x4c, 0x49, 0x52, 0x20, 0x43, 0x6f, 0x6e, 0x76, 0x65, 0x72, 0x74,
   0x65, 0x64, 0x2e, 0x00, 0x01, 0x00, 0x00, 0x00, 0x14, 0x00, 0x00, 0x00,
   0x00, 0x00, 0x0e, 0x00, 0x18, 0x00, 0x14, 0x00, 0x10, 0x00, 0x0c, 0x00,
   0x08, 0x00, 0x04, 0x00, 0x0e, 0x00, 0x00, 0x00, 0x14, 0x00, 0x00, 0x00,
   0x1c, 0x00, 0x00, 0x00, 0xe0, 0x00, 0x00, 0x00, 0xe4, 0x00, 0x00, 0x00,
   0xe8, 0x00, 0x00, 0x00, 0x04, 0x00, 0x00, 0x00, 0x6d, 0x61, 0x69, 0x6e,
   0x00, 0x00, 0x00, 0x00, 0x03, 0x00, 0x00, 0x00, 0x88, 0x00, 0x00, 0x00,
   0x44, 0x00, 0x00, 0x00, 0x10, 0x00, 0x00, 0x00, 0x00, 0x00, 0x0a, 0x00,
   0x10, 0x00, 0x0c, 0x00, 0x08, 0x00, 0x04, 0x00, 0x0a, 0x00, 0x00, 0x00,
   0x0c, 0x00, 0x00, 0x00, 0x10, 0x00, 0x00, 0x00, 0x01, 0x00, 0x00, 0x00,
   0x01, 0x00, 0x00, 0x00, 0x07, 0x00, 0x00, 0x00, 0x01, 0x00, 0x00, 0x00,
   0x06, 0x00, 0x00, 0x00, 0x00, 0x00, 0x0e, 0x00, 0x14, 0x00, 0x00, 0x00,
   0x10, 0x00, 0x0c, 0x00, 0x0b, 0x00, 0x04, 0x00, 0x0e, 0x00, 0x00, 0x00,
   0x10, 0x00, 0x00, 0x00, 0x00, 0x00, 0x00, 0x08, 0x0c, 0x00, 0x00, 0x00,
   0x10, 0x00, 0x00, 0x00, 0x74, 0xfc, 0xff, 0xff, 0x01, 0x00, 0x00, 0x00,
   0x06, 0x00, 0x00, 0x00, 0x03, 0x00, 0x00, 0x00, 0x05, 0x00, 0x00, 0x00,
   0x02, 0x00, 0x00, 0x00, 0x01, 0x00, 0x00, 0x00, 0x00, 0x00, 0x0e, 0x00,
   0x16, 0x00, 0x00, 0x00, 0x10, 0x00, 0x0c, 0x00, 0x0b, 0x00, 0x04, 0x00,
   0x0e, 0x00, 0x00, 0x00, 0x18, 0x00, 0x00, 0x00, 0x00, 0x00, 0x00, 0x08,
   0x18, 0x00, 0x00, 0x00, 0x1c, 0x00, 0x00, 0x00, 0x00, 0x00, 0x06, 0x00,
   0x08, 0x00, 0x07, 0x00, 0x06, 0x00, 0x00, 0x00, 0x00, 0x00, 0x00, 0x01,
   0x01, 0x00, 0x00, 0x00, 0x05, 0x00, 0x00, 0x00, 0x03, 0x00, 0x00, 0x00,
   0x00, 0x00, 0x00, 0x00, 0x03, 0x00, 0x00, 0x00, 0x04, 0x00, 0x00, 0x00,
   0x01, 0x00, 0x00, 0x00, 0x07, 0x00, 0x00, 0x00, 0x01, 0x00, 0x00, 0x00,
   0x00, 0x00, 0x00, 0x00, 0x08, 0x00, 0x00, 0x00, 0xe8, 0x02, 0x00, 0x00,
   0x88, 0x02, 0x00, 0x00, 0x20, 0x02, 0x00, 0x00, 0xd4, 0x01, 0x00, 0x00,
   0x70, 0x01, 0x00, 0x00, 0xdc, 0x00, 0x00, 0x00, 0x60, 0x00, 0x00, 0x00,
   0x04, 0x00, 0x00, 0x00, 0x4e, 0xfd, 0xff, 0xff, 0x00, 0x00, 0x00, 0x01,
   0x14, 0x00, 0x00, 0x00, 0x1c, 0x00, 0x00, 0x00, 0x1c, 0x00, 0x00, 0x00,
   0x08, 0x00, 0x00, 0x00, 0x34, 0x00, 0x00, 0x00, 0x02, 0x00, 0x00, 0x00,
   0xff, 0xff, 0xff, 0xff, 0x01, 0x00, 0x00, 0x00, 0x38, 0xfd, 0xff, 0xff,
   0x1b, 0x00, 0x00, 0x00, 0x53, 0x74, 0x61, 0x74, 0x65, 0x66, 0x75, 0x6c,
   0x50, 0x61, 0x72, 0x74, 0x69, 0x74, 0x69, 0x6f, 0x6e, 0x65, 0x64, 0x43,
   0x61, 0x6c, 0x6c, 0x5f, 0x31, 0x3a, 0x30, 0x00, 0x02, 0x00, 0x00, 0x00,
   0x01, 0x00, 0x00, 0x00, 0x01, 0x00, 0x00, 0x00, 0xa6, 0xfd, 0xff, 0xff,
   0x00, 0x00, 0x00, 0x01, 0x14, 0x00, 0x00, 0x00, 0x1c, 0x00, 0x00, 0x00,
   0x1c, 0x00, 0x00, 0x00, 0x07, 0x00, 0x00, 0x00, 0x54, 0x00, 0x00, 0x00,
   0x02, 0x00, 0x00, 0x00, 0xff, 0xff, 0xff, 0xff, 0x01, 0x00, 0x00, 0x00,
   0x90, 0xfd, 0xff, 0xff, 0x38, 0x00, 0x00, 0x00, 0x73, 0x65, 0x71, 0x75,
   0x65, 0x6e, 0x74, 0x69, 0x61, 0x6c, 0x5f, 0x31, 0x2f, 0x64, 0x65, 0x6e,
   0x73, 0x65, 0x5f, 0x31, 0x5f, 0x32, 0x2f, 0x4d, 0x61, 0x74, 0x4d, 0x75,
   0x6c, 0x3b, 0x73, 0x65, 0x71, 0x75, 0x65, 0x6e, 0x74, 0x69, 0x61, 0x6c,
   0x5f, 0x31, 0x2f, 0x64, 0x65, 0x6e, 0x73, 0x65, 0x5f, 0x31, 0x5f, 0x32,
   0x2f, 0x41, 0x64, 0x64, 0x00, 0x00, 0x00, 0x00, 0x02, 0x00, 0x00, 0x00,
   0x01, 0x00, 0x00, 0x00, 0x01, 0x00, 0x00, 0x00, 0x1e, 0xfe, 0xff, 0xff,
   0x00, 0x00, 0x00, 0x01, 0x14, 0x00, 0x00, 0x00, 0x1c, 0x00, 0x00, 0x00,
   0x1c, 0x00, 0x00, 0x00, 0x06, 0x00, 0x00, 0x00, 0x6c, 0x00, 0x00, 0x00,
   0x02, 0x00, 0x00, 0x00, 0xff, 0xff, 0xff, 0xff, 0x10, 0x00, 0x00, 0x00,
   0x08, 0xfe, 0xff, 0xff, 0x52, 0x00, 0x00, 0x00, 0x73, 0x65, 0x71, 0x75,
   0x65, 0x6e, 0x74, 0x69, 0x61, 0x6c, 0x5f, 0x31, 0x2f, 0x64, 0x65, 0x6e,
   0x73, 0x65, 0x5f, 0x31, 0x2f, 0x4d, 0x61, 0x74, 0x4d, 0x75, 0x6c, 0x3b,
   0x73, 0x65, 0x71, 0x75, 0x65, 0x6e, 0x74, 0x69, 0x61, 0x6c, 0x5f, 0x31,
   0x2f, 0x64, 0x65, 0x6e, 0x73, 0x65, 0x5f, 0x31, 0x2f, 0x52, 0x65, 0x6c,
   0x75, 0x3b, 0x73, 0x65, 0x71, 0x75, 0x65, 0x6e, 0x74, 0x69, 0x61, 0x6c,
   0x5f, 0x31, 0x2f, 0x64, 0x65, 0x6e, 0x73, 0x65, 0x5f, 0x31, 0x2f, 0x42,
   0x69, 0x61, 0x73, 0x41, 0x64, 0x64, 0x00, 0x00, 0x02, 0x00, 0x00, 0x00,
   0x01, 0x00, 0x00, 0x00, 0x10, 0x00, 0x00, 0x00, 0x0a, 0xff, 0xff, 0xff,
   0x00, 0x00, 0x00, 0x01, 0x10, 0x00, 0x00, 0x00, 0x10, 0x00, 0x00, 0x00,
   0x05, 0x00, 0x00, 0x00, 0x44, 0x00, 0x00, 0x00, 0x88, 0xfe, 0xff, 0xff,
   0x36, 0x00, 0x00, 0x00, 0x73, 0x65, 0x71, 0x75, 0x65, 0x6e, 0x74, 0x69,
   0x61, 0x6c, 0x5f, 0x31, 0x2f, 0x64, 0x65, 0x6e, 0x73, 0x65, 0x5f, 0x31,
   0x2f, 0x52, 0x65, 0x6c, 0x75, 0x3b, 0x73, 0x65, 0x71, 0x75, 0x65, 0x6e,
   0x74, 0x69, 0x61, 0x6c, 0x5f, 0x31, 0x2f, 0x64, 0x65, 0x6e, 0x73, 0x65,
   0x5f, 0x31, 0x2f, 0x42, 0x69, 0x61, 0x73, 0x41, 0x64, 0x64, 0x00, 0x00,
   0x01, 0x00, 0x00, 0x00, 0x10, 0x00, 0x00, 0x00, 0x6a, 0xff, 0xff, 0xff,
   0x00, 0x00, 0x00, 0x01, 0x10, 0x00, 0x00, 0x00, 0x10, 0x00, 0x00, 0x00,
   0x04, 0x00, 0x00, 0x00, 0x28, 0x00, 0x00, 0x00, 0xe8, 0xfe, 0xff, 0xff,
   0x1b, 0x00, 0x00, 0x00, 0x73, 0x65, 0x71, 0x75, 0x65, 0x6e, 0x74, 0x69,
   0x61, 0x6c, 0x5f, 0x31, 0x2f, 0x64, 0x65, 0x6e, 0x73, 0x65, 0x5f, 0x31,
   0x2f, 0x4d, 0x61, 0x74, 0x4d, 0x75, 0x6c, 0x00, 0x02, 0x00, 0x00, 0x00,
   0x10, 0x00, 0x00, 0x00, 0x06, 0x00, 0x00, 0x00, 0xb2, 0xff, 0xff, 0xff,
   0x00, 0x00, 0x00, 0x01, 0x10, 0x00, 0x00, 0x00, 0x10, 0x00, 0x00, 0x00,
   0x03, 0x00, 0x00, 0x00, 0x2c, 0x00, 0x00, 0x00, 0x30, 0xff, 0xff, 0xff,
   0x1d, 0x00, 0x00, 0x00, 0x73, 0x65, 0x71, 0x75, 0x65, 0x6e, 0x74, 0x69,
   0x61, 0x6c, 0x5f, 0x31, 0x2f, 0x64, 0x65, 0x6e, 0x73, 0x65, 0x5f, 0x31,
   0x5f, 0x32, 0x2f, 0x4d, 0x61, 0x74, 0x4d, 0x75, 0x6c, 0x00, 0x00, 0x00,
   0x02, 0x00, 0x00, 0x00, 0x01, 0x00, 0x00, 0x00, 0x10, 0x00, 0x00, 0x00,
   0x00, 0x00, 0x16, 0x00, 0x18, 0x00, 0x14, 0x00, 0x00, 0x00, 0x10, 0x00,
   0x0c, 0x00, 0x08, 0x00, 0x00, 0x00, 0x00, 0x00, 0x00, 0x00, 0x07, 0x00,
   0x16, 0x00, 0x00, 0x00, 0x00, 0x00, 0x00, 0x01, 0x10, 0x00, 0x00, 0x00,
   0x10, 0x00, 0x00, 0x00, 0x02, 0x00, 0x00, 0x00, 0x28, 0x00, 0x00, 0x00,
   0x94, 0xff, 0xff, 0xff, 0x1a, 0x00, 0x00, 0x00, 0x73, 0x65, 0x71, 0x75,
   0x65, 0x6e, 0x74, 0x69, 0x61, 0x6c, 0x5f, 0x31, 0x2f, 0x64, 0x65, 0x6e,
   0x73, 0x65, 0x5f, 0x31, 0x5f, 0x32, 0x2f, 0x41, 0x64, 0x64, 0x00, 0x00,
   0x01, 0x00, 0x00, 0x00, 0x01, 0x00, 0x00, 0x00, 0x00, 0x00, 0x16, 0x00,
   0x1c, 0x00, 0x18, 0x00, 0x00, 0x00, 0x14, 0x00, 0x10, 0x00, 0x0c, 0x00,
   0x00, 0x00, 0x00, 0x00, 0x08, 0x00, 0x07, 0x00, 0x16, 0x00, 0x00, 0x00,
   0x00, 0x00, 0x00, 0x01, 0x14, 0x00, 0x00, 0x00, 0x20, 0x00, 0x00, 0x00,
   0x20, 0x00, 0x00, 0x00, 0x01, 0x00, 0x00, 0x00, 0x3c, 0x00, 0x00, 0x00,
   0x02, 0x00, 0x00, 0x00, 0xff, 0xff, 0xff, 0xff, 0x06, 0x00, 0x00, 0x00,
   0x04, 0x00, 0x04, 0x00, 0x04, 0x00, 0x00, 0x00, 0x1d, 0x00, 0x00, 0x00,
   0x73, 0x65, 0x72, 0x76, 0x69, 0x6e, 0x67, 0x5f, 0x64, 0x65, 0x66, 0x61,
   0x75, 0x6c, 0x74, 0x5f, 0x69, 0x6e, 0x70, 0x75, 0x74, 0x5f, 0x6c, 0x61,
   0x79, 0x65, 0x72, 0x3a, 0x30, 0x00, 0x00, 0x00, 0x02, 0x00, 0x00, 0x00,
   0x01, 0x00, 0x00, 0x00, 0x06, 0x00, 0x00, 0x00, 0x02, 0x00, 0x00, 0x00,
   0x20, 0x00, 0x00, 0x00, 0x04, 0x00, 0x00, 0x00, 0xf4, 0xff, 0xff, 0xff,
   0x0e, 0x00, 0x00, 0x00, 0x00, 0x00, 0x00, 0x0e, 0x0c, 0x00, 0x0c, 0x00,
   0x0b, 0x00, 0x00, 0x00, 0x00, 0x00, 0x04, 0x00, 0x0c, 0x00, 0x00, 0x00,
   0x09, 0x00, 0x00, 0x00, 0x00, 0x00, 0x00, 0x09, 
};

const unsigned int modelo_tflite_len = 2228;

#endif
